#include "tflm_tiny_ai_model_data.h"

alignas(16) const unsigned char g_tflm_tiny_ai_model_data[] = {
    0x08, 0x00, 0x00, 0x00, 0x54, 0x46, 0x4c, 0x33, 0x9e, 0xff, 0xff, 0xff,
    0x03, 0x00, 0x00, 0x00, 0x38, 0x00, 0x00, 0x00, 0x2c, 0x00, 0x00, 0x00,
    0x08, 0x00, 0x00, 0x00, 0xd0, 0x03, 0x00, 0x00, 0x19, 0x00, 0x00, 0x00,
    0x44, 0x45, 0x32, 0x69, 0x2d, 0x31, 0x35, 0x30, 0x20, 0x74, 0x69, 0x6e,
    0x79, 0x5f, 0x61, 0x69, 0x20, 0x69, 0x6e, 0x74, 0x38, 0x20, 0x4d, 0x4c,
    0x50, 0x00, 0x00, 0x00, 0x01, 0x00, 0x00, 0x00, 0x34, 0x00, 0x00, 0x00,
    0x01, 0x00, 0x00, 0x00, 0x10, 0x00, 0x00, 0x00, 0x0c, 0x00, 0x0e, 0x00,
    0x07, 0x00, 0x00, 0x00, 0x00, 0x00, 0x08, 0x00, 0x0c, 0x00, 0x00, 0x00,
    0x00, 0x00, 0x00, 0x09, 0x09, 0x00, 0x00, 0x00, 0x00, 0x00, 0x0e, 0x00,
    0x18, 0x00, 0x04, 0x00, 0x08, 0x00, 0x0c, 0x00, 0x10, 0x00, 0x14, 0x00,
    0x0e, 0x00, 0x00, 0x00, 0xd8, 0x00, 0x00, 0x00, 0x10, 0x00, 0x00, 0x00,
    0x14, 0x00, 0x00, 0x00, 0x2c, 0x00, 0x00, 0x00, 0x14, 0x00, 0x00, 0x00,
    0x01, 0x00, 0x00, 0x00, 0x00, 0x00, 0x00, 0x00, 0x01, 0x00, 0x00, 0x00,
    0x06, 0x00, 0x00, 0x00, 0x0c, 0x00, 0x00, 0x00, 0x74, 0x69, 0x6e, 0x79,
    0x5f, 0x61, 0x69, 0x5f, 0x6d, 0x61, 0x69, 0x6e, 0x00, 0x00, 0x00, 0x00,
    0x02, 0x00, 0x00, 0x00, 0x58, 0x00, 0x00, 0x00, 0x04, 0x00, 0x00, 0x00,
    0xbe, 0xff, 0xff, 0xff, 0x00, 0x00, 0x00, 0x08, 0x14, 0x00, 0x00, 0x00,
    0x08, 0x00, 0x00, 0x00, 0x2c, 0x00, 0x00, 0x00, 0x01, 0x00, 0x00, 0x00,
    0x06, 0x00, 0x00, 0x00, 0x03, 0x00, 0x00, 0x00, 0x03, 0x00, 0x00, 0x00,
    0x04, 0x00, 0x00, 0x00, 0x05, 0x00, 0x00, 0x00, 0x00, 0x00, 0x0e, 0x00,
    0x06, 0x00, 0x00, 0x00, 0x00, 0x00, 0x00, 0x00, 0x00, 0x00, 0x05, 0x00,
    0x0e, 0x00, 0x00, 0x00, 0x00, 0x02, 0x0e, 0x00, 0x14, 0x00, 0x00, 0x00,
    0x08, 0x00, 0x0c, 0x00, 0x07, 0x00, 0x10, 0x00, 0x0e, 0x00, 0x00, 0x00,
    0x00, 0x00, 0x00, 0x08, 0x14, 0x00, 0x00, 0x00, 0x08, 0x00, 0x00, 0x00,
    0x2c, 0x00, 0x00, 0x00, 0x01, 0x00, 0x00, 0x00, 0x03, 0x00, 0x00, 0x00,
    0x03, 0x00, 0x00, 0x00, 0x00, 0x00, 0x00, 0x00, 0x01, 0x00, 0x00, 0x00,
    0x02, 0x00, 0x00, 0x00, 0x00, 0x00, 0x0e, 0x00, 0x08, 0x00, 0x06, 0x00,
    0x00, 0x00, 0x00, 0x00, 0x00, 0x00, 0x07, 0x00, 0x0e, 0x00, 0x00, 0x00,
    0x00, 0x00, 0x01, 0x02, 0x07, 0x00, 0x00, 0x00, 0x38, 0x02, 0x00, 0x00,
    0xc8, 0x01, 0x00, 0x00, 0x58, 0x01, 0x00, 0x00, 0x08, 0x01, 0x00, 0x00,
    0xac, 0x00, 0x00, 0x00, 0x54, 0x00, 0x00, 0x00, 0x04, 0x00, 0x00, 0x00,
    0xfa, 0xfd, 0xff, 0xff, 0x00, 0x00, 0x09, 0x01, 0x18, 0x00, 0x00, 0x00,
    0x08, 0x00, 0x00, 0x00, 0x1c, 0x00, 0x00, 0x00, 0x06, 0x00, 0x00, 0x00,
    0x6f, 0x75, 0x74, 0x70, 0x75, 0x74, 0x00, 0x00, 0x02, 0x00, 0x00, 0x00,
    0x01, 0x00, 0x00, 0x00, 0x04, 0x00, 0x00, 0x00, 0xe4, 0xfd, 0xff, 0xff,
    0x14, 0x00, 0x00, 0x00, 0x04, 0x00, 0x00, 0x00, 0x01, 0x00, 0x00, 0x00,
    0x80, 0xff, 0xff, 0xff, 0xff, 0xff, 0xff, 0xff, 0x01, 0x00, 0x00, 0x00,
    0x00, 0x00, 0x80, 0x47, 0xb2, 0xfe, 0xff, 0xff, 0x00, 0x00, 0x02, 0x01,
    0x20, 0x00, 0x00, 0x00, 0x04, 0x00, 0x00, 0x00, 0x08, 0x00, 0x00, 0x00,
    0x1c, 0x00, 0x00, 0x00, 0x08, 0x00, 0x00, 0x00, 0x66, 0x63, 0x32, 0x5f,
    0x62, 0x69, 0x61, 0x73, 0x00, 0x00, 0x00, 0x00, 0x01, 0x00, 0x00, 0x00,
    0x04, 0x00, 0x00, 0x00, 0x34, 0xfe, 0xff, 0xff, 0x18, 0x00, 0x00, 0x00,
    0x04, 0x00, 0x00, 0x00, 0x01, 0x00, 0x00, 0x00, 0x00, 0x00, 0x00, 0x00,
    0x00, 0x00, 0x00, 0x00, 0x00, 0x00, 0x00, 0x00, 0x01, 0x00, 0x00, 0x00,
    0x00, 0x00, 0x00, 0x44, 0x06, 0xff, 0xff, 0xff, 0x00, 0x00, 0x09, 0x01,
    0x20, 0x00, 0x00, 0x00, 0x03, 0x00, 0x00, 0x00, 0x08, 0x00, 0x00, 0x00,
    0x20, 0x00, 0x00, 0x00, 0x0a, 0x00, 0x00, 0x00, 0x66, 0x63, 0x32, 0x5f,
    0x77, 0x65, 0x69, 0x67, 0x68, 0x74, 0x00, 0x00, 0x02, 0x00, 0x00, 0x00,
    0x04, 0x00, 0x00, 0x00, 0x10, 0x00, 0x00, 0x00, 0x8c, 0xfe, 0xff, 0xff,
    0x18, 0x00, 0x00, 0x00, 0x04, 0x00, 0x00, 0x00, 0x01, 0x00, 0x00, 0x00,
    0x00, 0x00, 0x00, 0x00, 0x00, 0x00, 0x00, 0x00, 0x00, 0x00, 0x00, 0x00,
    0x01, 0x00, 0x00, 0x00, 0x00, 0x00, 0x80, 0x3f, 0xf2, 0xfe, 0xff, 0xff,
    0x00, 0x00, 0x09, 0x01, 0x18, 0x00, 0x00, 0x00, 0x08, 0x00, 0x00, 0x00,
    0x1c, 0x00, 0x00, 0x00, 0x06, 0x00, 0x00, 0x00, 0x68, 0x69, 0x64, 0x64,
    0x65, 0x6e, 0x00, 0x00, 0x02, 0x00, 0x00, 0x00, 0x01, 0x00, 0x00, 0x00,
    0x10, 0x00, 0x00, 0x00, 0xdc, 0xfe, 0xff, 0xff, 0x14, 0x00, 0x00, 0x00,
    0x04, 0x00, 0x00, 0x00, 0x01, 0x00, 0x00, 0x00, 0x00, 0x00, 0x00, 0x00,
    0x00, 0x00, 0x00, 0x00, 0x01, 0x00, 0x00, 0x00, 0x00, 0x00, 0x00, 0x44,
    0xaa, 0xff, 0xff, 0xff, 0x00, 0x00, 0x02, 0x01, 0x20, 0x00, 0x00, 0x00,
    0x02, 0x00, 0x00, 0x00, 0x08, 0x00, 0x00, 0x00, 0x1c, 0x00, 0x00, 0x00,
    0x08, 0x00, 0x00, 0x00, 0x66, 0x63, 0x31, 0x5f, 0x62, 0x69, 0x61, 0x73,
    0x00, 0x00, 0x00, 0x00, 0x01, 0x00, 0x00, 0x00, 0x10, 0x00, 0x00, 0x00,
    0x2c, 0xff, 0xff, 0xff, 0x18, 0x00, 0x00, 0x00, 0x04, 0x00, 0x00, 0x00,
    0x01, 0x00, 0x00, 0x00, 0x00, 0x00, 0x00, 0x00, 0x00, 0x00, 0x00, 0x00,
    0x00, 0x00, 0x00, 0x00, 0x01, 0x00, 0x00, 0x00, 0x00, 0x00, 0x80, 0x3f,
    0x00, 0x00, 0x16, 0x00, 0x18, 0x00, 0x08, 0x00, 0x06, 0x00, 0x0c, 0x00,
    0x10, 0x00, 0x14, 0x00, 0x00, 0x00, 0x00, 0x00, 0x00, 0x00, 0x07, 0x00,
    0x16, 0x00, 0x00, 0x00, 0x00, 0x00, 0x09, 0x01, 0x20, 0x00, 0x00, 0x00,
    0x01, 0x00, 0x00, 0x00, 0x08, 0x00, 0x00, 0x00, 0x20, 0x00, 0x00, 0x00,
    0x0a, 0x00, 0x00, 0x00, 0x66, 0x63, 0x31, 0x5f, 0x77, 0x65, 0x69, 0x67,
    0x68, 0x74, 0x00, 0x00, 0x02, 0x00, 0x00, 0x00, 0x10, 0x00, 0x00, 0x00,
    0x40, 0x00, 0x00, 0x00, 0x9c, 0xff, 0xff, 0xff, 0x14, 0x00, 0x00, 0x00,
    0x04, 0x00, 0x00, 0x00, 0x01, 0x00, 0x00, 0x00, 0x00, 0x00, 0x00, 0x00,
    0x00, 0x00, 0x00, 0x00, 0x01, 0x00, 0x00, 0x00, 0x00, 0x00, 0x80, 0x3f,
    0x00, 0x00, 0x16, 0x00, 0x14, 0x00, 0x08, 0x00, 0x06, 0x00, 0x00, 0x00,
    0x0c, 0x00, 0x10, 0x00, 0x00, 0x00, 0x00, 0x00, 0x00, 0x00, 0x07, 0x00,
    0x16, 0x00, 0x00, 0x00, 0x00, 0x00, 0x09, 0x01, 0x18, 0x00, 0x00, 0x00,
    0x08, 0x00, 0x00, 0x00, 0x28, 0x00, 0x00, 0x00, 0x05, 0x00, 0x00, 0x00,
    0x69, 0x6e, 0x70, 0x75, 0x74, 0x00, 0x00, 0x00, 0x02, 0x00, 0x00, 0x00,
    0x01, 0x00, 0x00, 0x00, 0x40, 0x00, 0x00, 0x00, 0x0c, 0x00, 0x0c, 0x00,
    0x00, 0x00, 0x00, 0x00, 0x04, 0x00, 0x08, 0x00, 0x0c, 0x00, 0x00, 0x00,
    0x18, 0x00, 0x00, 0x00, 0x04, 0x00, 0x00, 0x00, 0x01, 0x00, 0x00, 0x00,
    0x00, 0x00, 0x00, 0x00, 0x00, 0x00, 0x00, 0x00, 0x00, 0x00, 0x00, 0x00,
    0x01, 0x00, 0x00, 0x00, 0x00, 0x00, 0x80, 0x3f, 0x05, 0x00, 0x00, 0x00,
    0xf4, 0x04, 0x00, 0x00, 0xd0, 0x00, 0x00, 0x00, 0x7c, 0x00, 0x00, 0x00,
    0x28, 0x00, 0x00, 0x00, 0x04, 0x00, 0x00, 0x00, 0x26, 0xfb, 0xff, 0xff,
    0x04, 0x00, 0x00, 0x00, 0x10, 0x00, 0x00, 0x00, 0x00, 0x00, 0x00, 0x00,
    0xc0, 0xff, 0xff, 0xff, 0xe0, 0xff, 0xff, 0xff, 0xa0, 0xff, 0xff, 0xff,
    0x00, 0x00, 0x00, 0x00, 0x46, 0xfb, 0xff, 0xff, 0x04, 0x00, 0x00, 0x00,
    0x40, 0x00, 0x00, 0x00, 0x38, 0xf2, 0xf2, 0xf2, 0x0c, 0xf6, 0x0c, 0xf6,
    0x12, 0x12, 0xf2, 0xf2, 0xf2, 0xf2, 0xf2, 0xf2, 0xf2, 0x38, 0xf2, 0xf2,
    0x0c, 0xf6, 0xf6, 0x0c, 0xf2, 0xf2, 0x12, 0x12, 0xf2, 0xf2, 0xf2, 0xf2,
    0xf2, 0xf2, 0x38, 0xf2, 0xf6, 0x0c, 0x0c, 0xf6, 0xf2, 0xf2, 0xf2, 0xf2,
    0x12, 0x12, 0xf2, 0xf2, 0xf2, 0xf2, 0xf2, 0x38, 0xf6, 0x0c, 0xf6, 0x0c,
    0xf2, 0xf2, 0xf2, 0xf2, 0xf2, 0xf2, 0x12, 0x12, 0x00, 0x00, 0x00, 0x00,
    0x96, 0xfb, 0xff, 0xff, 0x04, 0x00, 0x00, 0x00, 0x40, 0x00, 0x00, 0x00,
    0x00, 0x00, 0x00, 0x00, 0x00, 0x00, 0x00, 0x00, 0x00, 0x00, 0x00, 0x00,
    0x00, 0x00, 0x00, 0x00, 0x00, 0x00, 0x00, 0x00, 0x00, 0x00, 0x00, 0x00,
    0x00, 0x00, 0x00, 0x00, 0x00, 0x00, 0x00, 0x00, 0x00, 0x00, 0x00, 0x00,
    0x00, 0x00, 0x00, 0x00, 0x00, 0x00, 0x00, 0x00, 0x00, 0x00, 0x00, 0x00,
    0x00, 0x00, 0x00, 0x00, 0x00, 0x00, 0x00, 0x00, 0x00, 0x00, 0x00, 0x00,
    0x00, 0x00, 0x00, 0x00, 0x00, 0x00, 0x00, 0x00, 0xe6, 0xfb, 0xff, 0xff,
    0x04, 0x00, 0x00, 0x00, 0x00, 0x04, 0x00, 0x00, 0x20, 0x20, 0x20, 0x20,
    0xf8, 0xf8, 0xf8, 0xf8, 0x20, 0x20, 0x20, 0x20, 0xf8, 0xf8, 0xf8, 0xf8,
    0x20, 0x20, 0x20, 0x20, 0xf8, 0xf8, 0xf8, 0xf8, 0x20, 0x20, 0x20, 0x20,
    0xf8, 0xf8, 0xf8, 0xf8, 0xf8, 0xf8, 0xf8, 0xf8, 0xf8, 0xf8, 0xf8, 0xf8,
    0xf8, 0xf8, 0xf8, 0xf8, 0xf8, 0xf8, 0xf8, 0xf8, 0xf8, 0xf8, 0xf8, 0xf8,
    0xf8, 0xf8, 0xf8, 0xf8, 0xf8, 0xf8, 0xf8, 0xf8, 0xf8, 0xf8, 0xf8, 0xf8,
    0xf8, 0xf8, 0xf8, 0xf8, 0x20, 0x20, 0x20, 0x20, 0xf8, 0xf8, 0xf8, 0xf8,
    0x20, 0x20, 0x20, 0x20, 0xf8, 0xf8, 0xf8, 0xf8, 0x20, 0x20, 0x20, 0x20,
    0xf8, 0xf8, 0xf8, 0xf8, 0x20, 0x20, 0x20, 0x20, 0xf8, 0xf8, 0xf8, 0xf8,
    0xf8, 0xf8, 0xf8, 0xf8, 0xf8, 0xf8, 0xf8, 0xf8, 0xf8, 0xf8, 0xf8, 0xf8,
    0xf8, 0xf8, 0xf8, 0xf8, 0xf8, 0xf8, 0xf8, 0xf8, 0xf8, 0xf8, 0xf8, 0xf8,
    0xf8, 0xf8, 0xf8, 0xf8, 0xf8, 0xf8, 0xf8, 0xf8, 0xf8, 0xf8, 0xf8, 0xf8,
    0xf8, 0xf8, 0xf8, 0xf8, 0xf8, 0xf8, 0xf8, 0xf8, 0xf8, 0xf8, 0xf8, 0xf8,
    0xf8, 0xf8, 0xf8, 0xf8, 0xf8, 0xf8, 0xf8, 0xf8, 0xf8, 0xf8, 0xf8, 0xf8,
    0x20, 0x20, 0x20, 0x20, 0xf8, 0xf8, 0xf8, 0xf8, 0x20, 0x20, 0x20, 0x20,
    0xf8, 0xf8, 0xf8, 0xf8, 0x20, 0x20, 0x20, 0x20, 0xf8, 0xf8, 0xf8, 0xf8,
    0x20, 0x20, 0x20, 0x20, 0xf8, 0xf8, 0xf8, 0xf8, 0xf8, 0xf8, 0xf8, 0xf8,
    0xf8, 0xf8, 0xf8, 0xf8, 0xf8, 0xf8, 0xf8, 0xf8, 0xf8, 0xf8, 0xf8, 0xf8,
    0xf8, 0xf8, 0xf8, 0xf8, 0xf8, 0xf8, 0xf8, 0xf8, 0xf8, 0xf8, 0xf8, 0xf8,
    0xf8, 0xf8, 0xf8, 0xf8, 0xf8, 0xf8, 0xf8, 0xf8, 0x20, 0x20, 0x20, 0x20,
    0xf8, 0xf8, 0xf8, 0xf8, 0x20, 0x20, 0x20, 0x20, 0xf8, 0xf8, 0xf8, 0xf8,
    0x20, 0x20, 0x20, 0x20, 0xf8, 0xf8, 0xf8, 0xf8, 0x20, 0x20, 0x20, 0x20,
    0x10, 0x10, 0x10, 0x10, 0x10, 0x10, 0x10, 0x10, 0x10, 0x10, 0x10, 0x10,
    0x10, 0x10, 0x10, 0x10, 0x10, 0x10, 0x10, 0x10, 0x10, 0x10, 0x10, 0x10,
    0x10, 0x10, 0x10, 0x10, 0x10, 0x10, 0x10, 0x10, 0xf8, 0xf8, 0xf8, 0xf8,
    0xf8, 0xf8, 0xf8, 0xf8, 0xf8, 0xf8, 0xf8, 0xf8, 0xf8, 0xf8, 0xf8, 0xf8,
    0xf8, 0xf8, 0xf8, 0xf8, 0xf8, 0xf8, 0xf8, 0xf8, 0xf8, 0xf8, 0xf8, 0xf8,
    0xf8, 0xf8, 0xf8, 0xf8, 0xf8, 0xf8, 0xf8, 0xf8, 0xf8, 0xf8, 0xf8, 0xf8,
    0xf8, 0xf8, 0xf8, 0xf8, 0xf8, 0xf8, 0xf8, 0xf8, 0xf8, 0xf8, 0xf8, 0xf8,
    0xf8, 0xf8, 0xf8, 0xf8, 0xf8, 0xf8, 0xf8, 0xf8, 0xf8, 0xf8, 0xf8, 0xf8,
    0x10, 0x10, 0x10, 0x10, 0x10, 0x10, 0x10, 0x10, 0x10, 0x10, 0x10, 0x10,
    0x10, 0x10, 0x10, 0x10, 0x10, 0x10, 0x10, 0x10, 0x10, 0x10, 0x10, 0x10,
    0x10, 0x10, 0x10, 0x10, 0x10, 0x10, 0x10, 0x10, 0x10, 0x10, 0x10, 0x10,
    0xf8, 0xf8, 0xf8, 0xf8, 0x10, 0x10, 0x10, 0x10, 0xf8, 0xf8, 0xf8, 0xf8,
    0x10, 0x10, 0x10, 0x10, 0xf8, 0xf8, 0xf8, 0xf8, 0x10, 0x10, 0x10, 0x10,
    0xf8, 0xf8, 0xf8, 0xf8, 0x10, 0x10, 0x10, 0x10, 0xf8, 0xf8, 0xf8, 0xf8,
    0x10, 0x10, 0x10, 0x10, 0xf8, 0xf8, 0xf8, 0xf8, 0x10, 0x10, 0x10, 0x10,
    0xf8, 0xf8, 0xf8, 0xf8, 0x10, 0x10, 0x10, 0x10, 0xf8, 0xf8, 0xf8, 0xf8,
    0xf8, 0xf8, 0xf8, 0xf8, 0x10, 0x10, 0x10, 0x10, 0xf8, 0xf8, 0xf8, 0xf8,
    0x10, 0x10, 0x10, 0x10, 0xf8, 0xf8, 0xf8, 0xf8, 0x10, 0x10, 0x10, 0x10,
    0xf8, 0xf8, 0xf8, 0xf8, 0x10, 0x10, 0x10, 0x10, 0xf8, 0xf8, 0xf8, 0xf8,
    0x10, 0x10, 0x10, 0x10, 0xf8, 0xf8, 0xf8, 0xf8, 0x10, 0x10, 0x10, 0x10,
    0xf8, 0xf8, 0xf8, 0xf8, 0x10, 0x10, 0x10, 0x10, 0xf8, 0xf8, 0xf8, 0xf8,
    0x10, 0x10, 0x10, 0x10, 0xfa, 0xfa, 0xfa, 0xfa, 0xfa, 0xfa, 0xfa, 0xfa,
    0xfa, 0x18, 0x18, 0xfa, 0xfa, 0xfa, 0xfa, 0xfa, 0xfa, 0x18, 0x18, 0xfa,
    0xfa, 0xfa, 0xfa, 0xfa, 0xfa, 0xfa, 0xfa, 0xfa, 0xfa, 0xfa, 0xfa, 0xfa,
    0xfa, 0xfa, 0xfa, 0xfa, 0xfa, 0xfa, 0xfa, 0xfa, 0xfa, 0xfa, 0xfa, 0xfa,
    0xfa, 0xfa, 0xfa, 0xfa, 0xfa, 0xfa, 0xfa, 0xfa, 0xfa, 0xfa, 0xfa, 0xfa,
    0xfa, 0xfa, 0xfa, 0xfa, 0xfa, 0xfa, 0xfa, 0xfa, 0x14, 0x14, 0x14, 0x14,
    0xfa, 0xfa, 0xfa, 0xfa, 0x14, 0xfa, 0xfa, 0x14, 0xfa, 0xfa, 0xfa, 0xfa,
    0x14, 0xfa, 0xfa, 0x14, 0xfa, 0xfa, 0xfa, 0xfa, 0x14, 0x14, 0x14, 0x14,
    0xfa, 0xfa, 0xfa, 0xfa, 0xfa, 0xfa, 0xfa, 0xfa, 0xfa, 0xfa, 0xfa, 0xfa,
    0xfa, 0xfa, 0xfa, 0xfa, 0xfa, 0xfa, 0xfa, 0xfa, 0xfa, 0xfa, 0xfa, 0xfa,
    0xfa, 0xfa, 0xfa, 0xfa, 0xfa, 0xfa, 0xfa, 0xfa, 0xfa, 0xfa, 0xfa, 0xfa,
    0xfa, 0xfa, 0xfa, 0xfa, 0xfa, 0xfa, 0xfa, 0xfa, 0xfa, 0xfa, 0xfa, 0xfa,
    0xfa, 0x18, 0x18, 0xfa, 0xfa, 0xfa, 0xfa, 0xfa, 0xfa, 0x18, 0x18, 0xfa,
    0xfa, 0xfa, 0xfa, 0xfa, 0xfa, 0xfa, 0xfa, 0xfa, 0xfa, 0xfa, 0xfa, 0xfa,
    0xfa, 0xfa, 0xfa, 0xfa, 0xfa, 0xfa, 0xfa, 0xfa, 0xfa, 0xfa, 0xfa, 0xfa,
    0xfa, 0xfa, 0xfa, 0xfa, 0xfa, 0xfa, 0xfa, 0xfa, 0xfa, 0xfa, 0xfa, 0xfa,
    0xfa, 0xfa, 0xfa, 0xfa, 0xfa, 0xfa, 0xfa, 0xfa, 0x14, 0x14, 0x14, 0x14,
    0xfa, 0xfa, 0xfa, 0xfa, 0x14, 0xfa, 0xfa, 0x14, 0xfa, 0xfa, 0xfa, 0xfa,
    0x14, 0xfa, 0xfa, 0x14, 0xfa, 0xfa, 0xfa, 0xfa, 0x14, 0x14, 0x14, 0x14,
    0xfa, 0xfa, 0xfa, 0xfa, 0xfa, 0xfa, 0xfa, 0xfa, 0xfa, 0xfa, 0xfa, 0xfa,
    0xfa, 0xfa, 0xfa, 0xfa, 0xfa, 0xfa, 0xfa, 0xfa, 0xfa, 0xfa, 0xfa, 0xfa,
    0xfa, 0xfa, 0xfa, 0xfa, 0xfa, 0xfa, 0xfa, 0xfa, 0xfa, 0xfa, 0xfa, 0xfa,
    0xfa, 0xfa, 0xfa, 0xfa, 0xfa, 0xfa, 0xfa, 0xfa, 0xfa, 0xfa, 0xfa, 0xfa,
    0xfa, 0xfa, 0xfa, 0xfa, 0xfa, 0xfa, 0xfa, 0xfa, 0xfa, 0xfa, 0xfa, 0xfa,
    0xfa, 0xfa, 0xfa, 0xfa, 0xfa, 0xfa, 0xfa, 0xfa, 0xfa, 0xfa, 0xfa, 0xfa,
    0xfa, 0x18, 0x18, 0xfa, 0xfa, 0xfa, 0xfa, 0xfa, 0xfa, 0x18, 0x18, 0xfa,
    0xfa, 0xfa, 0xfa, 0xfa, 0xfa, 0xfa, 0xfa, 0xfa, 0xfa, 0xfa, 0xfa, 0xfa,
    0xfa, 0xfa, 0xfa, 0xfa, 0xfa, 0xfa, 0xfa, 0xfa, 0xfa, 0xfa, 0xfa, 0xfa,
    0xfa, 0xfa, 0xfa, 0xfa, 0xfa, 0xfa, 0xfa, 0xfa, 0xfa, 0xfa, 0xfa, 0xfa,
    0xfa, 0xfa, 0xfa, 0xfa, 0xfa, 0xfa, 0xfa, 0xfa, 0x14, 0x14, 0x14, 0x14,
    0xfa, 0xfa, 0xfa, 0xfa, 0x14, 0xfa, 0xfa, 0x14, 0xfa, 0xfa, 0xfa, 0xfa,
    0x14, 0xfa, 0xfa, 0x14, 0xfa, 0xfa, 0xfa, 0xfa, 0x14, 0x14, 0x14, 0x14,
    0xfa, 0xfa, 0xfa, 0xfa, 0xfa, 0xfa, 0xfa, 0xfa, 0xfa, 0xfa, 0xfa, 0xfa,
    0xfa, 0xfa, 0xfa, 0xfa, 0xfa, 0xfa, 0xfa, 0xfa, 0xfa, 0xfa, 0xfa, 0xfa,
    0xfa, 0xfa, 0xfa, 0xfa, 0xfa, 0xfa, 0xfa, 0xfa, 0xfa, 0xfa, 0xfa, 0xfa,
    0xfa, 0xfa, 0xfa, 0xfa, 0xfa, 0xfa, 0xfa, 0xfa, 0xfa, 0xfa, 0xfa, 0xfa,
    0xfa, 0x18, 0x18, 0xfa, 0xfa, 0xfa, 0xfa, 0xfa, 0xfa, 0x18, 0x18, 0xfa,
    0xfa, 0xfa, 0xfa, 0xfa, 0xfa, 0xfa, 0xfa, 0xfa, 0xfa, 0xfa, 0xfa, 0xfa,
    0xfa, 0xfa, 0xfa, 0xfa, 0xfa, 0xfa, 0xfa, 0xfa, 0xfa, 0xfa, 0xfa, 0xfa,
    0xfa, 0xfa, 0xfa, 0xfa, 0xfa, 0xfa, 0xfa, 0xfa, 0xfa, 0xfa, 0xfa, 0xfa,
    0xfa, 0xfa, 0xfa, 0xfa, 0xfa, 0xfa, 0xfa, 0xfa, 0x14, 0x14, 0x14, 0x14,
    0xfa, 0xfa, 0xfa, 0xfa, 0x14, 0xfa, 0xfa, 0x14, 0xfa, 0xfa, 0xfa, 0xfa,
    0x14, 0xfa, 0xfa, 0x14, 0xfa, 0xfa, 0xfa, 0xfa, 0x14, 0x14, 0x14, 0x14,
    0x00, 0x00, 0x00, 0x00, 0x00, 0x00, 0x00, 0x00, 0x00, 0x00, 0x00, 0x00,
    0x00, 0x00, 0x06, 0x00, 0x08, 0x00, 0x04, 0x00, 0x06, 0x00, 0x00, 0x00,
    0x04, 0x00, 0x00, 0x00, 0x00, 0x00, 0x00, 0x00
};
